{"!":0,"\"":1,"#":2,"$":3,"%":4,"&":5,"'":6,"(":7,")":8,"*":9,"+":10,",":11,"-":12,".":13,"/":14,"0":15,"1":16,"2":17,"3":18,"4":19,"5":20,"6":21,"7":22,"8":23,"9":24,":":25,";":26,"<":27,"=":28,">":29,"?":30,"@":31,"A":32,"B":33,"C":34,"D":35,"E":36,"F":37,"G":38,"H":39,"I":40,"J":41,"K":42,"L":43,"M":44,"N":45,"O":46,"P":47,"Q":48,"R":49,"S":50,"T":51,"U":52,"V":53,"W":54,"X":55,"Y":56,"Z":57,"[":58,"\\":59,"]":60,"^":61,"_":62,"`":63,"a":64,"b":65,"c":66,"d":67,"e":68,"f":69,"g":70,"h":71,"i":72,"j":73,"k":74,"l":75,"m":76,"n":77,"o":78,"p":79,"q":80,"r":81,"s":82,"t":83,"u":84,"v":85,"w":86,"x":87,"y":88,"z":89,"{":90,"|":91,"}":92,"~":93,"¡":94,"¢":95,"£":96,"¤":97,"¥":98,"¦":99,"§":100,"¨":101,"©":102,"ª":103,"«":104,"¬":105,"®":106,"¯":107,"°":108,"±":109,"²":110,"³":111,"´":112,"µ":113,"¶":114,"·":115,"¸":116,"¹":117,"º":118,"»":119,"¼":120,"½":121,"¾":122,"¿":123,"À":124,"Á":125,"Â":126,"Ã":127,"Ä":128,"Å":129,"Æ":130,"Ç":131,"È":132,"É":133,"Ê":134,"Ë":135,"Ì":136,"Í":137,"Î":138,"Ï":139,"Ð":140,"Ñ":141,"Ò":142,"Ó":143,"Ô":144,"Õ":145,"Ö":146,"×":147,"Ø":148,"Ù":149,"Ú":150,"Û":151,"Ü":152,"Ý":153,"Þ":154,"ß":155,"à":156,"á":157,"â":158,"ã":159,"ä":160,"å":161,"æ":162,"ç":163,"è":164,"é":165,"ê":166,"ë":167,"ì":168,"í":169,"î":170,"ï":171,"ð":172,"ñ":173,"ò":174,"ó":175,"ô":176,"õ":177,"ö":178,"÷":179,"ø":180,"ù":181,"ú":182,"û":183,"ü":184,"ý":185,"þ":186,"ÿ":187,"Ā":188,"ā":189,"Ă":190,"ă":191,"Ą":192,"ą":193,"Ć":194,"ć":195,"Ĉ":196,"ĉ":197,"Ċ":198,"ċ":199,"Č":200,"č":201,"Ď":202,"ď":203,"Đ":204,"đ":205,"Ē":206,"ē":207,"Ĕ":208,"ĕ":209,"Ė":210,"ė":211,"Ę":212,"ę":213,"Ě":214,"ě":215,"Ĝ":216,"ĝ":217,"Ğ":218,"ğ":219,"Ġ":220,"ġ":221,"Ģ":222,"ģ":223,"Ĥ":224,"ĥ":225,"Ħ":226,"ħ":227,"Ĩ":228,"ĩ":229,"Ī":230,"ī":231,"Ĭ":232,"ĭ":233,"Į":234,"į":235,"İ":236,"ı":237,"Ĳ":238,"ĳ":239,"Ĵ":240,"ĵ":241,"Ķ":242,"ķ":243,"ĸ":244,"Ĺ":245,"ĺ":246,"Ļ":247,"ļ":248,"Ľ":249,"ľ":250,"Ŀ":251,"ŀ":252,"Ł":253,"ł":254,"Ń":255,"ĠĠ":256,"\\/":257,"ĠĠĠĠ":258,"er":259,"on":260,"\\\"":261,"re":262,"in":263,"en":264,"ĠĠĠ":265,"st":266,"at":267,"or":268,"le":269,"an":270,"it":271,"om":272,"\":":273,"\":\"":274,",\"":275,"\",\"":276,"se":277,"Ġt":278,"ar":279,"de":280,"al":281,"es":282,"Ġ\\\"":283,"ion":284,"ic":285,"as":286,"ct":287,"ent":288,"he":289,"ge":290,"ĠĠĠĠĠĠĠ":291,"ro":292,"Ġc":293,"am":294,"fi":295,"ne":296,"ol":297,"ub":298,"Ġ=":299,"is":300,"ac":301,"Ġ-":302,"un":303,"ing":304,";\\":305,"Ġp":306,"lo":307,"ut":308,"Ġf":309,"il":310,"con":311,"--":312,"ri":313,"eb":314,"Ġs":315,"ch":316,"ad":317,"ur":318,"ap":319,",\\":320,"te":321,"li":322,"age":323,"Ġ{":324,"ĠĠĠĠĠĠĠĠ":325,"file":326,"im":327,")\\":328,"ed":329,"com":330,"Ġ'":331,"==":332,"ab":333,"hom":334,"Ġre":335,"rew":336,"do":337,"Ġb":338,"new":339,"ame":340,":\\":341,"ents":342,"}\\":343,"ate":344,"if":345,"ebrew":346,"os":347,"homebrew":348,"ver":349,"Ġin":350,"Ġm":351,"ot":352,"cont":353,"ĠĠĠĠĠ":354,"pe":355,"id":356,"ht":357,"end":358,"ra":359,"ang":360,"pt":361,"and":362,"Ġ{\\":363,"Ġthe":364,"lic":365,"us":366,">\\":367,"el":368,"co":369,"ask":370,"old":371,"ul":372,"ex":373,"et":374,"Ġto":375,"\\\":":376,"um":377,"qu":378,"\\/\\/":379,"\\\"\\":380,"Ġw":381,"ort":382,"Ġn":383,"je":384,"Ġ<":385,"mit":386,"ation":387,"contents":388,"em":389,"ject":390,"ess":391,"th":392,"ve":393,"Ġa":394,"cask":395,");\\":396,"est":397,"git":398,"port":399,"Ġo":400,"ass":401,"di":402,"ce":403,"all":404,"ense":405,"ack":406,"up":407,"ck":408,"ag":409,"pl":410,"od":411,"sc":412,"ter":413,".\\":414,"Ġde":415,"Ġ(":416,"rom":417,"sh":418,"----":419,"tp":420,"op":421,"sion":422,"ode":423,"=\\\"":424,"ĠĠĠĠĠĠĠĠĠĠĠ":425,"ction":426,"ke":427,"ĠS":428,"js":429,"\\\",\\":430,"\\\\":431,"lang":432,"Ġfor":433,"Ġ$":434,"pos":435,"ĠC":436,"Ġ*":437,"ue":438,"http":439,"ig":440,"license":441,"##":442,"sp":443,"essage":444,"for":445,"cl":446,"av":447,"Ġ}":448,"ript":449,"Ġ[":450,":\\/\\/":451,"app":452,"Ġ}\\":453,"py":454,"ĠA":455,"lin":456,"ay":457,"ĠT":458,"Ġth":459,"to":460,"sub":461,"ma":462,"ase":463,"str":464,"Ġ:":465,"Ġv":466,"Ġcon":467,"get":468,"bo":469,"repos":470,"message":471,"ci":472,"test":473,"set":474,"ser":475,"ire":476,"act":477,"Ġd":478,"'\\":479,"import":480,"io":481,"commit":482,"ss":483,"00":484,"subject":485,"ho":486,"\"}":487,"{\"":488,"ml":489,"('":490,"name":491,"tr":492,"art":493,"net":494,"ĠP":495,"Ġand":496,"able":497,"dd":498,"ath":499,"ild":500,"hub":501,"pro":502,"ir":503,"ll":504,"Ġex":505,"ers":506,"wor":507,"version":508,"ure":509,"our":510,"ph":511,"Ġend":512,"use":513,"xt":514,"Ġof":515,"und":516,"quire":517,"form":518,"In":519,"fig":520,"ug":521,"github":522,"Ġdo":523,"**":524,"ype":525,"Ġst":526,"uild":527,"Ġ1":528,"urn":529,"====":530,"ata":531,"Ġg":532,"()":533,"Ġ%":534,"Re":535,"ie":536,"Ġis":537,"iz":538,"Ġr":539,"ĠL":540,"ith":541,"fa":542,"ult":543,"lib":544,"<\\/":545,"ore":546,"https":547,"script":548,"ift":549,"sw":550,"stall":551,"Ġh":552,"turn":553,"ment":554,"',":555,"rc":556,"lass":557,"Ġ#":558,"::":559,"ple":560,"Ġ@":561,"20":562,"low":563,"ain":564,"per":565,"Ġif":566,"ĠD":567,"ark":568,"Ġon":569,"log":570,"Ġse":571,"thon":572,"Ġcom":573,"]\\":574,"--------":575,"ff":576,"ist":577,"kub":578,"date":579,"unction":580,"org":581,"Ġtest":582,"mo":583,"ip":584,"ĠM":585,"ive":586,"add":587,"are":588,"ernet":589,"ernetes":590,"kubernetes":591,"Ġpro":592,"ly":593,"ok":594,"gr":595,"ust":596,"ON":597,"int":598,"ule":599,"Ġ.":600,"po":601,"ory":602,"work":603,"Ġclass":604,"swift":605,"nt":606,"ber":607,"Add":608,"ity":609,"ite":610,"Fi":611,"lab":612,"__":613,"ĠĠĠĠĠĠĠĠĠ":614,"Ġ|":615,"go":616,"Ġy":617,"pec":618,"ache":619,"ail":620,"Ġ--":621,"ak":622,"be":623,"ast":624,"Ġreturn":625,"Ġe":626,"Ġfrom":627,"ree":628,"ER":629,"out":630,"Con":631,"Ġtr":632,"ace":633,"ĠI":634,"ium":635,"lf":636,"Ġname":637,"ant":638,"og":639,"unt":640,"me":641,"pre":642,"ĠR":643,"url":644,"ption":645,"uth":646,"Ġ0":647,"ard":648,"Ġdef":649,"Ġbe":650,"user":651,"der":652,"ror":653,"wn":654,"(\\\"":655,"10":656,"nimport":657,"Ġwith":658,"Ġthis":659,"ash":660,"one":661,"iew":662,"vis":663,"\\\",":664,"Ġ\\/":665,"Ġ2":666,"min":667,"ep":668,"ĠĠĠĠĠĠĠĠĠĠĠĠĠĠĠ":669,"ĠB":670,"ublic":671,"src":672,"odule":673,"fo":674,"sy":675,"env":676,"ĠE":677,"my":678,"ec":679,"key":680,"che":681,"dev":682,"ĠO":683,"ou":684,"12":685,"..":686,"ia":687,"ext":688,"Ġ=>":689,"ĠG":690,"man":691,"``":692,"ice":693,"open":694,"ik":695,"ĠF":696,"Ġfile":697,"ial":698,"pack":699,"ĠN":700,"Up":701,"Ġit":702,"ob":703,"ude":704,"IT":705,"RE":706,"but":707,"put":708,"Ġ\\":709,"div":710,"ava":711,"plat":712,"so":713,"ime":714,"ary":715,"code":716,"ils":717,"ator":718,"ine":719,"Ġfunction":720,"oh":721,"arg":722,"cript":723,"ource":724,"ill":725,").":726,"',\\":727,"ry":728,"res":729,"rame":730,"react":731,"ft":732,"pes":733,"11":734,"db":735,"require":736,"ans":737,"da":738,"clude":739,"no":740,"bin":741,"nf":742,"path":743,"arch":744,"chrom":745,"ME":746,"ake":747,"cc":748,"Ġinstall":749,"ies":750,"quest":751,"php":752,"val":753,"ib":754,"html":755,"Ġl":756,"fault":757,"####":758,"atom":759,"config":760,"Ġ`":761,"enden":762,"ide":763,"mat":764,"jang":765,"load":766,"her":767,"ick":768,"{\\":769,"Ġ},\\":770,"tra":771,"Ġrequire":772,"ython":773,"text":774,"loc":775,"IN":776,"dep":777,"ages":778,"Ġnew":779,"ud":780,"ĠW":781,"Ġuse":782,"par":783,"ach":784,"ange":785,"Ġrun":786,"icense":787,"ĠU":788,"fe":789,"md":790,"ull":791,"Ġnot":792,"Ġversion":793,"lect":794,"Ġ<\\/":795,"Ġan":796,"ramework":797,"cker":798,"uby":799,"tem":800,"jango":801,"class":802,"Ġas":803,"chromium":804,"ĠĠĠĠĠĠĠĠĠĠĠĠĠĠĠĠ":805,"su":806,"ron":807,"doc":808,"\\/\\":809,"Ġset":810,"Ġor":811,"ght":812,"St":813,"nc":814,"Ġ&":815,"core":816,"Ġ+":817,"link":818,"Update":819,"odel":820,"iv":821,"ens":822,"cre":823,"ww":824,"->":825,"string":826,"19":827,"========":828,"Ġtrue":829,"15":830,"list":831,"()\\":832,"ee":833,"pon":834,"az":835,"flow":836,"EN":837,"ms":838,"\\\">\\":839,"comm":840,"pp":841,"Ch":842,"json":843,"ger":844,"ener":845,"AT":846,"16":847,"ribut":848,"13":849,"col":850,"web":851,"Test":852,"roid":853,"data":854,"ize":855,"ux":856,"ow":857,"alse":858,"ert":859,"ĠH":860,"ML":861,"nd":862,"Ġdi":863,"eng":864,"Pro":865,"14":866,"ix":867,"\":\"#":868,"ign":869,"cli":870,"Ġimport":871,"row":872,"18":873,"ample":874,"les":875,"build":876,"64":877,"type":878,"Ġfi":879,"](":880,"oc":881,"atch":882,"')":883,"ST":884,"auth":885,"ds":886,"scription":887,"Ġch":888,"dex":889,"Ġj":890,"itle":891,"line":892,"def":893,"ations":894,"af":895,"api":896,"met":897,"rect":898,"gitlab":899,"sk":900,"spree":901,"ind":902,"Ġval":903,"17":904,"yml":905,"ments":906,"module":907,"):\\":908,"{{":909,"ĠLicense":910,"mark":911,"Ġcont":912,"ugin":913,"ty":914,"();\\":915,"ong":916,"Ġbuild":917,"boot":918,"Ġpublic":919,"serv":920,"ev":921,"Ġself":922,"let":923,"ov":924,"var":925,"rails":926,"Ġwh":927,"hq":928,"SE":929,"Ġ\\/\\/":930,"ref":931,"Ġget":932,"zsh":933,"dir":934,"ns":935,"reci":936,"Ġ]":937,"Ġapp":938,"br":939,"lock":940,"Ġup":941,"head":942,"ded":943,"view":944,"apache":945,"error":946,"read":947,"Ġthat":948,"Ġ3":949,"ng":950,"cess":951,"Ġal":952,"ated":953,"uage":954,"ance":955,"ION":956,"ĠIn":957,"roll":958,"ative":959,"python":960,"lease":961,"Com":962,"----------------":963,"uli":964,"Ġat":965,"gro":966,"\\\">":967,"Ġconfig":968,"the":969,"ost":970,"pen":971,"32":972,"platform":973,"rb":974,"travis":975,"node":976,"tring":977,"Ġby":978,"ile":979,"ax":980,"ptions":981,"recipes":982,"gitlabhq":983,"ĠV":984,"ef":985,"Ġvar":986,"np":987,"Ġim":988,"ument":989,"AR":990,"cy":991,"Name":992,"ale":993,"AD":994,"88":995,"ton":996,"arn":997,"stem":998,"LE":999,"this":1000,"ery":1001,"Ġyou":1002,"ings":1003,"25":1004,"root":1005,"down":1006,"']":1007,"ave":1008,"sd":1009,"right":1010,"du":1011,"ich":1012,"urre":1013,"Ġun":1014,"main":1015,"hel":1016,"aw":1017,"his":1018,"ames":1019,"ps":1020,"Fix":1021,"')\\":1022,"****":1023,"spec":1024,"cho":1025,"04":1026,"vm":1027,"ight":1028,"cd":1029,"24":1030,"');\\":1031,"ray":1032,"ition":1033,"ĠRe":1034,"99":1035,"cies":1036,"not":1037,"Ġfalse":1038,"Ġ*\\/\\":1039,"Ġ==":1040,"='":1041,"\\\")\\":1042,"eld":1043,"ish":1044,"['":1045,"atic":1046,"ific":1047,"files":1048,"File":1049,"ler":1050,"ols":1051,"OR":1052,"';\\":1053,"Ġspec":1054,"package":1055,"search":1056,"nend":1057,"23":1058,"Ġ!":1059,"install":1060,"endencies":1061,"heck":1062,"Ġ&&":1063,"Ex":1064,"\":\".":1065,"project":1066,"ca":1067,"velo":1068,"ont":1069,"Ġhttps":1070,"host":1071,"nT":1072,"`\\":1073,"mand":1074,"alk":1075,"cor":1076,"language":1077,"AN":1078,"80":1079,"${":1080,"uld":1081,"lay":1082,"fore":1083,"Ġres":1084,"erv":1085,"txt":1086,"urrent":1087,"Cont":1088,"description":1089,"self":1090,">=":1091,"ware":1092,"Ġtype":1093,"ĠJ":1094,"fl":1095,"jo":1096,"27":1097,"mon":1098,"over":1099,"86":1100,"back":1101,"hod":1102,"server":1103,"ulip":1104,"ensor":1105,"local":1106,"ces":1107,"fer":1108,"zulip":1109,"docker":1110,"strap":1111,"ody":1112,"55":1113,"clo":1114,"opy":1115,"plate":1116,"start":1117,"ts":1118,"gre":1119,"bl":1120,"index":1121,"rint":1122,"Ġ\\\\":1123,"33":1124,"using":1125,"Ġ\\\"^":1126,"IC":1127,"ork":1128,"ster":1129,"ted":1130,"Sy":1131,"Ġdata":1132,"kin":1133,"base":1134,"atus":1135,"ove":1136,"..\\/":1137,"vent":1138,"($":1139,"pect":1140,"nfrom":1141,"ell":1142,"bb":1143,"include":1144,"edx":1145,"red":1146,"rust":1147,"ench":1148,"77":1149,"Id":1150,"50":1151,"Ġdefault":1152,"email":1153,"26":1154,"Ġadd":1155,"java":1156,"lication":1157,"34":1158,"ian":1159,"Ġcan":1160,"ner":1161,"bject":1162,"ify":1163,"ersion":1164,"Ġ20":1165,"ony":1166,"tern":1167,"Ġdep":1168,"yle":1169,"Ġ[\\":1170,"django":1171,"30":1172,"ql":1173,"reate":1174,"ensorflow":1175,"Ġel":1176,".\\/":1177,"cb":1178,"\\\")":1179,"riv":1180,"play":1181,"Ġuser":1182,"ember":1183,"tensorflow":1184,"ses":1185,"ctions":1186,"framework":1187,"ams":1188,"29":1189,"author":1190,"SS":1191,"Ġpython":1192,"Ġpar":1193,"assert":1194,"ock":1195,"len":1196,"Ġ}}":1197,".\",\"":1198,"89":1199,"Ġ%}\\":1200,"elect":1201,"cf":1202,"ence":1203,"Ġyour":1204,"ush":1205,"ogle":1206,"AML":1207,"uration":1208,"bootstrap":1209,"oid":1210,"Ġare":1211,"UT":1212,"ah":1213,"bar":1214,"gem":1215,"args":1216,"mf":1217,"bit":1218,"velop":1219,"undle":1220,"56":1221,"YAML":1222,"84":1223,"df":1224,"ba":1225,"any":1226,"ran":1227,"px":1228,"ring":1229,"Ġx":1230,"we":1231,"roller":1232,"Ġne":1233,"VER":1234,"ross":1235,"36":1236,"DI":1237,"umber":1238,"ys":1239,"########":1240,"Ġpath":1241,"87":1242,"**\\":1243,"Ġ_":1244,"Type":1245,"by":1246,"init":1247,"DE":1248,"stru":1249,"PI":1250,"title":1251,"under":1252,"\\/*":1253,"teor":1254,"arget":1255,"ict":1256,"upport":1257,"Ġid":1258,"Ġcode":1259,"spon":1260,"mb":1261,"ature":1262,"ui":1263,"ainer":1264,"run":1265,"ome":1266,"pi":1267,"-\\":1268,"Ġlib":1269,"ric":1270,"ink":1271,"54":1272,"native":1273,"unit":1274,"37":1275,"nex":1276,"map":1277,"HO":1278,"Ġdoc":1279,"uto":1280,"Ġlog":1281,"39":1282,"model":1283,"dow":1284,"walk":1285,"ise":1286,"plates":1287,"box":1288,"Ġhttp":1289,"son":1290,"%=":1291,"Ġsub":1292,"Ġpl":1293,"tend":1294,"apt":1295,"57":1296,"meteor":1297,"docs":1298,"erver":1299,"less":1300,"rror":1301,"nclass":1302,"www":1303,"Ġelse":1304,"rit":1305,"client":1306,"endency":1307,"Ġsho":1308,"))\\":1309,"lob":1310,"plugin":1311,"adle":1312,"indow":1313,"Ġpack":1314,"ĠĠĠĠĠĠ":1315,"Ġcol":1316,"return":1317,"admin":1318,"22":1319,"UR":1320,"bu":1321,"count":1322,"dis":1323,"word":1324,"59":1325,"{%":1326,"Ġunder":1327,"Ġnode":1328,"bot":1329,"astic":1330,"loy":1331,"mer":1332,"ĠĠĠĠĠĠĠĠĠĠĠĠĠĠĠĠĠĠĠ":1333,"RO":1334,"nS":1335,"ai":1336,"Ġstring":1337,"aged":1338,"Ġmet":1339,"mfony":1340,"post":1341,"ible":1342,"Framework":1343,"09":1344,"ponent":1345,"For":1346,"request":1347,"Ġurl":1348,"tests":1349,"aa":1350,"cross":1351,"Ġout":1352,"Ġ%>\\":1353,"ADME":1354,"AL":1355,"66":1356,"\":\"<":1357,"07":1358,"rivate":1359,"bt":1360,"osf":1361,"pace":1362,"enchmark":1363,"itor":1364,"itory":1365,"ound":1366,"ual":1367,"default":1368,"Ġsu":1369,"aml":1370,"ervice":1371,"mail":1372,"ere":1373,"ruby":1374,"ren":1375,"lu":1376,"tings":1377,"FI":1378,"Ġvalue":1379,"Script":1380,"ĠThe":1381,"ste":1382,"iron":1383,"CT":1384,"pm":1385,"npy":1386,"of":1387,"templates":1388,"SION":1389,"Ġconst":1390,"content":1391,"Res":1392,"Ġtests":1393,"Text":1394,"Ġ*\\":1395,"rap":1396,"atest":1397,"ices":1398,"idth":1399,"cover":1400,"pa":1401,"Ġlink":1402,"crosswalk":1403,"Ġ5":1404,"(\\":1405,"Ġ4":1406,"Ġenv":1407,"rout":1408,"To":1409,"Ġso":1410,"const":1411,"Build":1412,"Ġi":1413,"ension":1414,"query":1415,"GE":1416,"Ġli":1417,"fd":1418,"bug":1419,"List":1420,"ystem":1421,"Ġall":1422,"item":1423,"Ġen":1424,"':":1425,"ken":1426,"Ġproject":1427,"ae":1428,"label":1429,"mar":1430,"rary":1431,"staged":1432,"lient":1433,"ny":1434,"coin":1435,"bed":1436,"String":1437,"ĠK":1438,"electron":1439,"ause":1440,"css":1441,"Ġ||":1442,"06":1443,"Ġ>":1444,"rst":1445,"Ġdis":1446,"mis":1447,"lean":1448,"ception":1449,"spring":1450,"OS":1451,"Ġ__":1452,"ream":1453,"ĠSt":1454,"imple":1455,"Ġ::":1456,"struct":1457,"ular":1458,"README":1459,"(:":1460,"Ar":1461,"emove":1462,"44":1463,"nel":1464,"gu":1465,"Ġscript":1466,"android":1467,"Ġwork":1468,"Use":1469,"time":1470,"sv":1471,"Error":1472,"inte":1473,"check":1474,"ky":1475,"Ġinclude":1476,"pat":1477,"icon":1478,"asticsearch":1479,"Ġcommand":1480,"'s":1481,"util":1482,"Ġwill":1483,"wh":1484,"fb":1485,"mp":1486,"ftware":1487,"xml":1488,"Ġ});\\":1489,"rix":1490,"Ġ\\\"$":1491,"Ġkey":1492,"IS":1493,"28":1494,"stribut":1495,"stance":1496,"App":1497,"Ġ${":1498,"Ġerror":1499,"enchmarks":1500,"hell":1501,"ko":1502,"Ġlist":1503,"ager":1504,"21":1505,"VERSION":1506,"\\\");\\":1507,"Ġno":1508,"dat":1509,"function":1510,"View":1511,"ags":1512,"Code":1513,"Ġthen":1514,"source":1515,"body":1516,"ey":1517,"```\\":1518,"zer":1519,"Ġwhen":1520,"De":1521,"sl":1522,"cept":1523,"Ġgem":1524,"rectory":1525,"FrameworkB":1526,"inter":1527,"CH":1528,"Ġpre":1529,"value":1530,"35":1531,"rop":1532,"DIR":1533,"Ġmodule":1534,"zh":1535,"\\\";\\":1536,"FrameworkBenchmarks":1537,"symfony":1538,"tom":1539,"Ġcheck":1540,"ATH":1541,"velopment":1542,"vid":1543,"Tr":1544,"create":1545,"ĠThis":1546,"google":1547,"lint":1548,"OT":1549,"tribut":1550,"AS":1551,"================":1552,"97":1553,"ics":1554,"Ġtext":1555,"linux":1556,"mary":1557,"ails":1558,"master":1559,"sole":1560,"96":1561,"elasticsearch":1562,"ndef":1563,"array":1564,"uk":1565,"Ġhref":1566,"kg":1567,"ning":1568,"01":1569,"nA":1570,"ateg":1571,"site":1572,"Ġsh":1573,"#\\":1574,"dc":1575,"abase":1576,"Config":1577,"[:":1578,"Ġpy":1579,"ook":1580,"\\\"\\\"":1581,"group":1582,"stack":1583,"Mark":1584,"Remove":1585,"ravis":1586,"\\/.":1587,"nif":1588,"assword":1589,"reg":1590,"MIT":1591,"Ġab":1592,"ors":1593,"car":1594,"Set":1595,"erial":1596,"sponse":1597,"SON":1598,"dot":1599,"kit":1600,"Ġper":1601,"lter":1602,"action":1603,"sol":1604,"ally":1605,"icro":1606,"Java":1607,"94":1608,"led":1609,"Ġrequest":1610,"Pl":1611,"cal":1612,"nrequire":1613,"fix":1614,"ources":1615,"book":1616,"Ġos":1617,"num":1618,"iq":1619,"bd":1620,"rm":1621,"Ġ\\\\\\":1622,"top":1623,"}\\/":1624,"Ġread":1625,"ĠString":1626,"ris":1627,"sing":1628,"Ġac":1629,"Ġ],\\":1630,"conda":1631,"qual":1632,"image":1633,"oo":1634,"lement":1635,"Val":1636,"|\\":1637,"learn":1638,"Ġstatic":1639,"85":1640,"bc":1641,"ecut":1642,"ES":1643,"opyright":1644,"au":1645,"DO":1646,"Ġpage":1647,"wit":1648,"ccess":1649,"ane":1650,"cloud":1651,"tools":1652,"err":1653,"#{":1654,"Ġ\\\"~":1655,"Ġbase":1656,"Ġ[\\\"":1657,"manage":1658,"quick":1659,"MA":1660,"Ġ.\\/":1661,"\":\"\",\"":1662,"********":1663,"sum":1664,"ank":1665,"Ġgit":1666,"igr":1667,"bio":1668,"scripts":1669,"47":1670,"05":1671,"pet":1672,"rite":1673,"67":1674,"Ġk":1675,"inal":1676,"off":1677,"que":1678,"03":1679,"amespace":1680,"Ġwe":1681,"nC":1682,"nuse":1683,"unity":1684,"bsd":1685,"ubl":1686,"Ġorg":1687,"Version":1688,"Path":1689,"epage":1690,"Ġback":1691,"press":1692,"IL":1693,"azure":1694,"\\\"]":1695,"nexport":1696,"))":1697,"fc":1698,"rant":1699,"cord":1700,"Ġph":1701,"nn":1702,"comp":1703,"raw":1704,"Ġupdate":1705,"gram":1706,"Data":1707,"ze":1708,"---\\":1709,"homepage":1710,"before":1711,"Ġnull":1712,"Ruby":1713,"Ġint":1714,"odo":1715,"ironment":1716,"Ġlet":1717,"Ġmake":1718,"Change":1719,"scri":1720,"ICEN":1721,"ons":1722,"face":1723,"uper":1724,"aut":1725,"edia":1726,"help":1727,"Ġshould":1728,"Ġ{{":1729,"Ġhave":1730,"here":1731,"clause":1732,"nscript":1733,"ID":1734,"Ġvoid":1735,"Ġgo":1736,"ĠY":1737,"requirements":1738,"Im":1739,"nvar":1740,"Ġfiles":1741,"Ġprivate":1742,"ength":1743,"ions":1744,"input":1745,"info":1746,"LO":1747,"gradle":1748,"lev":1749,"Ġtem":1750,"har":1751,"color":1752,"ustom":1753,"ponents":1754,"Ġmethod":1755,"unc":1756,"Ġcreate":1757,"Python":1758,"board":1759,"ĠTest":1760,"gg":1761,"ĠPro":1762,"Ġpost":1763,"),":1764,"ress":1765,"\":\"{\\":1766,"sm":1767,"HP":1768,"ĠCom":1769,"Ġinit":1770,"ternal":1771,"Ġassert":1772,"page":1773,"Un":1774,"NA":1775,"idd":1776,"Ġsrc":1777,"Ġusing":1778,"lli":1779,"ord":1780,"02":1781,"order":1782,"Ġpip":1783,"ICENSE":1784,"oad":1785,"from":1786,"block":1787,"LI":1788,"Ġnpm":1789,"Ġexpect":1790,"Par":1791,"95":1792,"><\\/":1793,"Ġ}}\\":1794,"td":1795,"'t":1796,"Qu":1797,"Ġcontent":1798,"active":1799,"mission":1800,"PATH":1801,"rowser":1802,"08":1803,"?\\":1804,"En":1805,"Ġoptions":1806,"lection":1807,"example":1808,"uc":1809,"38":1810,"Ġtime":1811,"format":1812,"embed":1813,"HT":1814,"ould":1815,"ground":1816,"};\\":1817,"Ġextend":1818,"meta":1819,"gener":1820,"ĠCon":1821,"chef":1822,"Ġdistribut":1823,"hu":1824,"odoo":1825,"Ġ['":1826,"Ġcomp":1827,"table":1828,"lick":1829,"valid":1830,"entry":1831,"Web":1832,"vert":1833,"setup":1834,"rol":1835,"ins":1836,"header":1837,"ali":1838,"Open":1839,"rid":1840,"gra":1841,"nb":1842,"Ġbut":1843,"dependencies":1844,"lobal":1845,"command":1846,"utils":1847,"bioconda":1848,"ifi":1849,"ports":1850,"true":1851,"bf":1852,"Ġ->":1853,"rl":1854,"\\\"]\\":1855,"object":1856,"Ġecho":1857,"Ty":1858,"aj":1859,"Ġresult":1860,"dependency":1861,"Al":1862,"modules":1863,"style":1864,"000":1865,"anch":1866,"ned":1867,"vider":1868,"cache":1869,"oot":1870,"cur":1871,"gen":1872,"Ġmore":1873,"llvm":1874,"Ġdocument":1875,"with":1876,"span":1877,"sche":1878,"ade":1879,"ĠĠĠĠĠĠĠĠĠĠĠĠĠ":1880,"Ġsource":1881,"cs":1882,"hy":1883,"ox":1884,"button":1885,"AB":1886,"Ġimage":1887,"pr":1888,"Ġmain":1889,"Col":1890,"dk":1891,"KE":1892,"Make":1893,"Ġmay":1894,"pres":1895,"TR":1896,"Ġcommit":1897,"aster":1898,"can":1899,"ier":1900,"ister":1901,"sets":1902,"river":1903,"ĠFile":1904,"quickstart":1905,"amp":1906,"Man":1907,"zz":1908,"yn":1909,"Ġren":1910,"agrant":1911,"Ġstr":1912,"Ġandroid":1913,"ocket":1914,"Controller":1915,"CE":1916,"Ġopen":1917,"tim":1918,"release":1919,"sql":1920,"usr":1921,"trans":1922,"tag":1923,"Ġ?":1924,"ew":1925,"Ġlicense":1926,"ikit":1927,"ract":1928,"grap":1929,"light":1930,"other":1931,"),\\":1932,"74":1933,"76":1934,"ea":1935,"ories":1936,"inx":1937,"User":1938,"change":1939,"--------------------------------":1940,"Markdown":1941,"ani":1942,"ates":1943,"sign":1944,"raform":1945,"mal":1946,"latest":1947,"pert":1948,"Ġ)\\":1949,"make":1950,"actory":1951,"nP":1952,"roup":1953,"yaml":1954,"packages":1955,"sed":1956,"lius":1957,"pc":1958,"Ġgener":1959,"Ġauth":1960,"Ġrender":1961,"Ġpackage":1962,"lenium":1963,"la":1964,"size":1965,"ĠEx":1966,"ount":1967,"way":1968,"Ġany":1969,"lex":1970,"Ġserver":1971,"Ġcurrent":1972,"++":1973,"ets":1974,"community":1975,"terraform":1976,"perty":1977,"Ġextends":1978,"enter":1979,"manageiq":1980,"sudo":1981,"options":1982,"views":1983,"Ġover":1984,"Ġonly":1985,"The":1986,"kins":1987,"sues":1988,"job":1989,"\":\"#!":1990,"ros":1991,"Ġprint":1992,"ld":1993,"Ġ()":1994,"cha":1995,"ding":1996,"how":1997,"ben":1998,"Ġweb":1999,"Ġmodel":2000,"Ġrequired":2001,"ka":2002,"arent":2003,"poser":2004,"servo":2005,"scikit":2006,"Ġ]\\":2007,"selenium":2008,"ical":2009,"cr":2010,"apper":2011,"jen":2012,"va":2013,"embedded":2014,"90":2015,"ride":2016,"vide":2017,"Ġ{%":2018,"cope":2019,"place":2020,"iable":2021,"CO":2022,"Ġobject":2023,"});\\":2024,"field":2025,"adata":2026,"Ġcover":2027,"HE":2028,"istr":2029,"Ġjava":2030,"Dep":2031,"EST":2032,"><":2033,"ues":2034,"template":2035,"home":2036,"event":2037,"iter":2038,"Log":2039,"inc":2040,"andler":2041,"uff":2042,"nbefore":2043,"older":2044,"nect":2045,"xy":2046,"Ġ<%=":2047,"ĠOR":2048,"joh":2049,"lete":2050,"nav":2051,"').":2052,"Ġhas":2053,"Ġcall":2054,"58":2055,"Ġsudo":2056,"dist":2057,"cat":2058,"\\/**\\":2059,"ification":2060,"cook":2061,"ating":2062,"ĠSystem":2063,"height":2064,"46":2065,"Ġstart":2066,"ble":2067,"llij":2068,"yles":2069,"Ġmessage":2070,"\":\"#!\\/":2071,"na":2072,"CK":2073,"Ġline":2074,"task":2075,"Ad":2076,"Ġapt":2077,"tect":2078,"Ġ~":2079,"().":2080,"ĠAPI":2081,"Ġcl":2082,"Ġ\\/>\\":2083,"vs":2084,"intellij":2085,"gn":2086,"ĠVersion":2087,"atabase":2088,"\\\\\\\\":2089,"micro":2090,"dio":2091,"nconst":2092,"opt":2093,"max":2094,"UL":2095,"ĠPython":2096,"ameter":2097,"kyll":2098,"tool":2099,"98":2100,"iler":2101,"Sylius":2102,"}}":2103,"=$":2104,"FILE":2105,"MP":2106,"ING":2107,"Ġtrans":2108,"Ġdistributed":2109,"31":2110,"US":2111,"por":2112,"repository":2113,"Exception":2114,"move":2115,"Ġsupport":2116,"Ġphp":2117,"ility":2118,"ĠAN":2119,"inf":2120,"ala":2121,"pan":2122,"layout":2123,"status":2124,"ures":2125,"npytest":2126,"ting":2127,"mod":2128,"ranch":2129,"join":2130,"Ġmat":2131,"Ġinter":2132,"ha":2133,"vagrant":2134,"ĠTravis":2135,"Ġchange":2136,"JSON":2137,"pol":2138,"target":2139,"ization":2140,"filter":2141,"Ġra":2142,"try":2143,"abled":2144,"ging":2145,"param":2146,"\\\"><\\/":2147,"lar":2148,"components":2149,"ats":2150,"pkg":2151,"update":2152,"argin":2153,"bash":2154,"service":2155,"alex":2156,"etch":2157,"cov":2158,"Se":2159,"nw":2160,"Ġuses":2161,"92":2162,"perties":2163,"ĠCopyright":2164,"plit":2165,"eature":2166,"Model":2167,"mk":2168,"Ġexample":2169,"osh":2170,"42":2171,"fs":2172,"nmodule":2173,"engine":2174,"Ġlocal":2175,"nThis":2176,"lot":2177,"Service":2178,"Ġrelease":2179,"grunt":2180,"Ġ'\\/":2181,"Ġsetup":2182,"result":2183,"ek":2184,"JavaScript":2185,"duct":2186,"Ġblock":2187,"An":2188,"network":2189,"']\\":2190,"treturn":2191,".*":2192,"Ġfl":2193,"angular":2194,"MS":2195,"find":2196,"sa":2197,"ugh":2198,"0000":2199,"60":2200,"asic":2201,"words":2202,"###":2203,"select":2204,"scribe":2205,"NAME":2206,"ĠAdd":2207,"52":2208,"Ġtitle":2209,"space":2210,"part":2211,"ulp":2212,"spark":2213,"width":2214,"TO":2215,"openembedded":2216,"\":\"<?":2217,"bitcoin":2218,"Ġruby":2219,"enu":2220,"Ġwhich":2221,"igh":2222,"coverage":2223,"Ġ10":2224,"################":2225,"Ġus":2226,"ollow":2227,"Time":2228,"93":2229,"han":2230,"vin":2231,"Ġcase":2232,"tif":2233,"store":2234,"={":2235,"Ġ\\\"\\\"":2236,"uri":2237,"Ġarray":2238,"ool":2239,"HOME":2240,"Ġcopy":2241,"jekyll":2242,"each":2243,"ni":2244,"current":2245,"kar":2246,"pty":2247,"Ġallow":2248,"Ġdirectory":2249,"brew":2250,"irror":2251,"zip":2252,"RAN":2253,"Ġgr":2254,"));\\":2255,"conf":2256,"ret":2257,"nection":2258,"ru":2259,"formation":2260,"izer":2261,"aly":2262,"TI":2263,"untu":2264,"jav":2265,"Ġload":2266,"ham":2267,"ĠSee":2268,"Object":2269,"Ġdescription":2270,"utf":2271,"deploy":2272,"pg":2273,"ley":2274,"82":2275,"._":2276,"wa":2277,"Base":2278,"ascript":2279,"level":2280,"Ġ\\/**\\":2281,"Ġdocker":2282,"91":2283,"pache":2284,"Ġ7":2285,"Ġused":2286,"RI":2287,"Ġitem":2288,"BU":2289,"air":2290,"Ġrel":2291,"hen":2292,"ninstall":2293,"length":2294,"40":2295,"Bundle":2296,"SD":2297,"nset":2298,"direct":2299,"~~":2300,"ndjango":2301,"ĠApp":2302,"Class":2303,"License":2304,"Key":2305,"state":2306,"Ġ!=":2307,"LA":2308,"print":2309,"parse":2310,"ose":2311,"elds":2312,"ker":2313,"win":2314,"ctive":2315,"branch":2316,"nusing":2317,"83":2318,"ĠTr":2319,"models":2320,"Ġoutput":2321,").\\":2322,"Ġneed":2323,"ump":2324,"ming":2325,"deps":2326,"Ġ};\\":2327,"andle":2328,"})\\":2329,"ini":2330,"ined":2331,"pository":2332,"ops":2333,"Ġbefore":2334,"].":2335,"irt":2336,"alls":2337,"development":2338,"aven":2339,"dom":2340,"rub":2341,"tar":2342,"ublish":2343,"LICENSE":2344,"ote":2345,"process":2346,"cket":2347,"jenkins":2348,"Ġinitial":2349,"Ġman":2350,"Ġreg":2351,"TH":2352,"point":2353,"img":2354,"Ġro":2355,"issues":2356,"abel":2357,"Ġtemplate":2358,"Ġle":2359,"ply":2360,"```":2361,"indows":2362,"Inter":2363,"Ġ'>=":2364,"ĠIN":2365,"ls":2366,"sto":2367,"45":2368,"system":2369,"Sh":2370,"ansible":2371,"UN":2372,"PE":2373,"Met":2374,"static":2375,"Ġbranch":2376,"gmail":2377,"Ġav":2378,"rib":2379,"plement":2380,"nI":2381,"Ġformat":2382,"tw":2383,"coding":2384,"olt":2385,"Ġarg":2386,"nix":2387,"orage":2388,"services":2389,"mi":2390,"ĠSet":2391,"asy":2392,"next":2393,"its":2394,"gh":2395,"cle":2396,"Ġ|\\":2397,"ks":2398,"Value":2399,"Ġplugin":2400,"pto":2401,"ĠYou":2402,"ĠInstall":2403,"ĠDe":2404,"ram":2405,"Ġview":2406,"umn":2407,"location":2408,"hash":2409,"wift":2410,"application":2411,"ĠOF":2412,"Ġpart":2413,"He":2414,"ared":2415,"Do":2416,"method":2417,"cial":2418,"[\\\"":2419,"token":2420,"Ġ<<":2421,"75":2422,"iki":2423,"Ġsome":2424,"ĠCI":2425,"ader":2426,"ung":2427,"versions":2428,"Event":2429,"common":2430,"And":2431,"Not":2432,"feature":2433,"Ġdependencies":2434,"show":2435,"Ġdisplay":2436,"Ġprocess":2437,"Ġstate":2438,"etc":2439,"oco":2440,"Request":2441,"Hel":2442,"ju":2443,"npm":2444,"ED":2445,"69":2446,"call":2447,"ful":2448,"48":2449,"65":2450,"grade":2451,"ĠTO":2452,"alph":2453,"rs":2454,"Ġvalid":2455,"output":2456,"Ġlo":2457,"ta":2458,"Ġemail":2459,"Ġ\\\"\\/":2460,"gres":2461,"ĠCh":2462,"URL":2463,"fre":2464,"Ġtask":2465,"oding":2466,"pli":2467,"78":2468,"cms":2469,"ĠĠĠĠĠĠĠĠĠĠĠĠĠĠĠĠĠĠĠĠĠĠĠ":2470,"ely":2471,"fter":2472,"eps":2473,"uppet":2474,"adding":2475,"DB":2476,"Ġnumber":2477,"anges":2478,"rapper":2479,"Des":2480,"ulti":2481,"ino":2482,"illa":2483,"helper":2484,"nThe":2485,"}\\\"\\":2486,"ven":2487,"Ġchar":2488,"ender":2489,"AV":2490,"plugins":2491,"Ġtarget":2492,"hout":2493,"Dis":2494,"side":2495,"Ġcontext":2496,"sdk":2497,"container":2498,"tribute":2499,"PO":2500,"HTML":2501,"null":2502,"Ġinput":2503,"Ġnil":2504,"Ġinto":2505,"nnamespace":2506,"ĠX":2507,"QL":2508,"abric":2509,"PHP":2510,"Ġ);\\":2511,"Ġmin":2512,"Ġdjango":2513,"orn":2514,"now":2515,"SC":2516,"sn":2517,"![":2518,"att":2519,"png":2520,"nv":2521,"ackage":2522,"Ġ:=":2523,"sue":2524,"...":2525,"AP":2526,"By":2527,"ped":2528,"wer":2529,"settings":2530,"ape":2531,"very":2532,"pri":2533,"Ġone":2534,"Ġcolor":2535,"79":2536,"fin":2537,"mart":2538,"star":2539,"Component":2540,"Ġfont":2541,"response":2542,"igned":2543,"Ġright":2544,"Or":2545,"mc":2546,"should":2547,"van":2548,"andom":2549,"npython":2550,"nRe":2551,"Ġfollow":2552,"labs":2553,"Ġmargin":2554,"Ġother":2555,"Item":2556,"\\/_":2557,"edit":2558,"hed":2559,"68":2560,"password":2561,"ubuntu":2562,"Client":2563,"ku":2564,"Ġ#{":2565,"Ġlibrary":2566,"atform":2567,"NE":2568,"Command":2569,"vscode":2570,"49":2571,"Field":2572,"State":2573,"ensions":2574,"soft":2575,"char":2576,"Dependencies":2577,"Ġresponse":2578,"Ġmatrix":2579,"ado":2580,"Th":2581,"gems":2582,"Ġdev":2583,"({\\":2584,"mirror":2585,"idget":2586,"ling":2587,"erson":2588,"Ġ\\\"${":2589,"assets":2590,"Ġport":2591,"Spec":2592,"styles":2593,"types":2594,"Case":2595,"document":2596,"Get":2597,"ĠCON":2598,"igin":2599,"mac":2600,"ĠFor":2601,"oe":2602,"=\\":2603,"Ġroot":2604,"rel":2605,"Ġad":2606,"Ġconfiguration":2607,"ĠUn":2608,"ailable":2609,"200":2610,"ifications":2611,"umb":2612,"annel":2613,"\\/\\/\\/\\/":2614,"contrib":2615,"tributes":2616,"Ġmatch":2617,"Ġpos":2618,"patch":2619,"Ġapplication":2620,"ki":2621,"cdn":2622,"Hub":2623,"Ġclient":2624,"success":2625,"Ġcre":2626,"Ġmaster":2627,"gl":2628,"dav":2629,"PA":2630,"blog":2631,"Ġactions":2632,"ily":2633,"70":2634,"!--":2635,"At":2636,"stream":2637,"ao":2638,"Ġhost":2639,"params":2640,"exports":2641,"oftware":2642,"uan":2643,"loud":2644,"Te":2645,"UB":2646,"ii":2647,"after":2648,"Ġform":2649,"cpp":2650,"Ġindex":2651,"acker":2652,"Ġ->\\":2653,"fron":2654,"debug":2655,"lename":2656,"fx":2657,"shift":2658,"}\\\"":2659,"])\\":2660,"ctor":2661,"endor":2662,"stead":2663,"sert":2664,"62":2665,"!\\":2666,"rig":2667,"ities":2668,"53":2669,"Ġ''\\":2670,"sample":2671,"Ġwrit":2672,"tot":2673,"fail":2674,"Ġpackages":2675,"Node":2676,"metadata":2677,"Shell":2678,"necho":2679,"dotfiles":2680,"ndescription":2681,"73":2682,"bro":2683,"alled":2684,"ĠApache":2685,"Ġevent":2686,"Ġ\\\"\\\"\\\"\\":2687,"Ġsy":2688,"ced":2689,"ized":2690,"Ġsoftware":2691,"svg":2692,"ntest":2693,"summary":2694,"Ġwas":2695,"Ġ**":2696,"Ġmy":2697,"oint":2698,"43":2699,"As":2700,"npublic":2701,"wang":2702,"..\\/..\\/":2703,"directory":2704,"Url":2705,"agpl":2706,"tk":2707,"font":2708,"Ġlanguage":2709,"esh":2710,"match":2711,"leg":2712,"Le":2713,"configuration":2714,"licenses":2715,"Ġlabel":2716,"];\\":2717,"lines":2718,"nr":2719,"Ġ===":2720,"uments":2721,"fast":2722,"pand":2723,"Ġargs":2724,"aniel":2725,"Manager":2726,"cut":2727,"missions":2728,"ENV":2729,"Tests":2730,"ĠCont":2731,"nsudo":2732,"Ġconsole":2733,"Ġcontain":2734,"},\\":2735,"uch":2736,"Chat":2737,"case":2738,"Check":2739,"Plugin":2740,"unch":2741,"mt":2742,"Ġ$(":2743,"mode":2744,"xx":2745,"presto":2746,"found":2747,"split":2748,"context":2749,"ngit":2750,"wo":2751,"infra":2752,"Ġstatus":2753,"ĠGit":2754,"javascript":2755,"ĠDo":2756,"mote":2757,"ĠĠĠĠĠĠĠĠĠĠ":2758,"PT":2759,"Ġexcept":2760,"\\\"\\\"\\\"\\":2761,"push":2762,"entic":2763,"hook":2764,"<%=":2765,"CI":2766,"Context":2767,"],":2768,"amb":2769,"pose":2770,"Ġwidth":2771,"True":2772,"Ġdate":2773,"ear":2774,"Ġ(\\":2775,"ari":2776,"rist":2777,"ja":2778,"zeroc":2779,"Def":2780,"kinfo":2781,"Ġlimit":2782,"lickinfo":2783,"zeroclickinfo":2784,"tected":2785,"Ġinformation":2786,"ATE":2787,"Message":2788,"jar":2789,"());\\":2790,"jobs":2791,"Ġbundle":2792,"ero":2793,"Ġdoes":2794,"Ġ6":2795,"ious":2796,"tech":2797,"sch":2798,"report":2799,"rest":2800,"tail":2801,"empty":2802,"72":2803,"ategory":2804,"PL":2805,"Ġsite":2806,"Auth":2807,"\\/\\/\\":2808,"Ġstyle":2809,"cond":2810,"olog":2811,"ten":2812,"apter":2813,"'),\\":2814,"ivity":2815,"Ġsystem":2816,"generator":2817,"undler":2818,"untime":2819,"sam":2820,"puppet":2821,"numpy":2822,"ĠAr":2823,"\":\"---\\":2824,"fact":2825,"Ġfind":2826,"ĠANY":2827,"Ġabout":2828,"63":2829,"Ġaction":2830,"Ġinstead":2831,"ĠIS":2832,"ĠĠĠĠĠĠĠĠĠĠĠĠĠĠĠĠĠĠĠĠĠĠĠĠĠĠĠĠĠĠĠĠ":2833,"Ġspecific":2834,"Ġ'.\\/":2835,"Ġaut":2836,"ĠUser":2837,"keywords":2838,"Ġtry":2839,"sg":2840,"Equal":2841,"router":2842,"controller":2843,"Ġhere":2844,"Ġbackground":2845,"Run":2846,"Ġservice":2847,"Ġenvironment":2848,"icha":2849,"cp":2850,"cent":2851,"ĠWAR":2852,"first":2853,"chen":2854,"Ġexit":2855,"Ġty":2856,"iff":2857,"Doc":2858,"Ut":2859,"reak":2860,"\\\"\\/":2861,"shot":2862,"Ġcd":2863,"era":2864,"81":2865,"CON":2866,"Ġsuper":2867,"Loc":2868,"pkgs":2869,"Ed":2870,"}}\\":2871,"als":2872,"ists":2873,"Ġdependency":2874,"ski":2875,"On":2876,"Ġfix":2877,"Ext":2878,"Ġjson":2879,"editor":2880,"nenv":2881,"graph":2882,"ĠReact":2883,"duction":2884,"Core":2885,"Ġdb":2886,"udio":2887,"sim":2888,"essages":2889,"rag":2890,"Ġprovide":2891,"ignore":2892,"tpublic":2893,"ater":2894,"tmp":2895,"ither":2896,"Ġsee":2897,"browser":2898,"nfunction":2899,"ĠCode":2900,"Ġu":2901,"Ġ)":2902,"raph":2903,"public":2904,"iddle":2905,"Ġnow":2906,"sync":2907,"cdnjs":2908,"Ġoption":2909,"Types":2910,"Ġsettings":2911,"chris":2912,"}\",\"":2913,"TP":2914,"ott":2915,"iled":2916,"jdk":2917,"jas":2918,"gration":2919,"Ġ{}\\":2920,"only":2921,"reen":2922,"rick":2923,"Ġ-*":2924,"Ġdatabase":2925,"roy":2926,"Map":2927,"ponse":2928,"dash":2929,"ference":2930,"Ġ%>":2931,"ute":2932,"ttp":2933,"semb":2934,"nadd":2935,"Ġtag":2936,"render":2937,"ayout":2938,"rem":2939,"Element":2940,"chema":2941,"****************":2942,"nF":2943,"Ġshow":2944,"Ġexec":2945,"ĠWARRAN":2946,"ants":2947,"Ġparams":2948,"():\\":2949,"ĠIf":2950,"arm":2951,"sys":2952,"artic":2953,"sci":2954,"urs":2955,"mem":2956,"auto":2957,"Server":2958,"ites":2959,"Ġpush":2960,"Ġcoverage":2961,"alt":2962,"vo":2963,"fac":2964,"ved":2965,"cry":2966,"Ġfeature":2967,"nfi":2968,"Ġtable":2969,"rad":2970,"abs":2971,"Ġvariable":2972,"mock":2973,"tails":2974,"Ġme":2975,"grpc":2976,"artif":2977,"Ġ100":2978,"sky":2979,"authors":2980,"({":2981,"ann":2982,"just":2983,"EX":2984,"([":2985,"Rocket":2986,";;":2987,"Of":2988,"drop":2989,"Ġ})\\":2990,"51":2991,"Ġinstance":2992,"desk":2993,"Ġauto":2994,"RL":2995,"jm":2996,"unk":2997,"apple":2998,"Gener":2999,"oto":3000,"nfl":3001,"Ġafter":3002,"ward":3003,"Ġ${{":3004,"dirname":3005,"Ġact":3006,"illi":3007,"define":3008,"tt":3009,"aries":3010,"Ġfinal":3011,"send":3012,"nW":3013,"entity":3014,"ĠRun":3015,"gz":3016,"Ġspe":3017,"library":3018,"wnload":3019,"71":3020,"Ġ<%":3021,"phpunit":3022,"Ġdocumentation":3023,"bad":3024,"hat":3025,"has":3026,"Ġsteps":3027,"ends":3028,"Ġz":3029,"material":3030,"Ġauthor":3031,"API":3032,"matrix":3033,"Ġthrow":3034,"images":3035,"cel":3036,"irtual":3037,"Net":3038,"=\\\"{{":3039,"write":3040,"itions":3041,"false":3042,"loat":3043,"vc":3044,"Ġexecut":3045,"})":3046,"Ġ+=":3047,"100":3048,"avel":3049,"heet":3050,"andard":3051,"med":3052,"vision":3053,"ASE":3054,"âĢ":3055,"Ġdirect":3056,"iver":3057,"Ġrepo":3058,"instance":3059,"ĠBuild":3060,"skia":3061,"Ġhelp":3062,"thing":3063,"ithout":3064,"Ġ];":3065,"parser":3066,"tore":3067,"zilla":3068,"ĠWIT":3069,"IONS":3070,"cer":3071,"Ġfail":3072,"41":3073,"ji":3074,"Ġfirst":3075,"witter":3076,"Ġfollowing":3077,"eed":3078,"non":3079,"asses":3080,"FA":3081,"syn":3082,"Ġpadding":3083,"incub":3084,"Ġrequirements":3085,"Ġ%}":3086,"Kit":3087,"erb":3088,"del":3089,"Provider":3090,"ano":3091,"micropython":3092,"incubator":3093,"bj":3094,"ther":3095,"Ġ[[":3096,"XX":3097,"ower":3098,"Ġfound":3099,"fr":3100,"tri":3101,"resources":3102,"Ġ8":3103,"zy":3104,"artifact":3105,"jon":3106,"Project":3107,"utton":3108,"Ġunless":3109,"username":3110,"std":3111,"Ġcor":3112,"olve":3113,"ilt":3114,"repo":3115,"migr":3116,"Query":3117,"eta":3118,"nixpkgs":3119,"external":3120,"Ġext":3121,"lif":3122,"properties":3123,"Ġpull":3124,"plete":3125,"Ġeither":3126,"gulp":3127,"Ġmod":3128,"omet":3129,"aws":3130,"ebook":3131,"kw":3132,"attr":3133,"changelog":3134,"ient":3135,"layer":3136,"Ġhtml":3137,"fied":3138,"(__":3139,"session":3140,"Ġinst":3141,"Ġerr":3142,"istry":3143,"?(":3144,"ential":3145,"Ġunit":3146,"pages":3147,"\\/*.":3148,"Ġapplic":3149,"OL":3150,"ĠIm":3151,"ĠRes":3152,"Install":3153,"support":3154,"bs":3155,"ios":3156,"mocha":3157,"john":3158,"Ġrepository":3159,"GS":3160,"ichael":3161,"requests":3162,"linuxbrew":3163,"ĠHT":3164,"route":3165,"Form":3166,"RC":3167,"curity":3168,"Over":3169,"props":3170,"oth":3171,"Ġmax":3172,"examples":3173,"olut":3174,"Ġ(!":3175,"download":3176,"gy":3177,"Ġfield":3178,"ported":3179,"rep":3180,"stract":3181,"Ġgithub":3182,"ifier":3183,"Load":3184,"access":3185,"Ġbin":3186,"liance":3187,"aging":3188,"agov":3189,"acy":3190,"Array":3191,"Content":3192,"CL":3193,"Ġpass":3194,"Be":3195,"Ġapi":3196,"fu":3197,"],\\":3198,"ĠCheck":3199,"scope":3200,"Ġchanges":3201,"register":3202,"Ġ($":3203,"anguage":3204,"jack":3205,"ntax":3206,"gs":3207,"ĠURL":3208,"hor":3209,"last":3210,"connect":3211,"tox":3212,"achine":3213,"odi":3214,"refer":3215,"):":3216,"pip":3217,"Ġdeploy":3218,"Handler":3219,"\\\").":3220,"mine":3221,"ines":3222,"ILD":3223,"Ġag":3224,"uid":3225,"tree":3226,"alias":3227,"alphagov":3228,"UI":3229,"number":3230,"TIES":3231,"witch":3232,"Ġexpress":3233,"deb":3234,"pay":3235,"origin":3236,"sage":3237,"ond":3238,"Inte":3239,"ffe":3240,"Date":3241,"scala":3242,"execut":3243,"tle":3244,"Ġar":3245,"ird":3246,"Ġwithout":3247,"IO":3248,"Ġgroup":3249,")](":3250,"Create":3251,"lan":3252,"devDependencies":3253,"Image":3254,"composer":3255,"ĠNone":3256,"coder":3257,"uster":3258,"raft":3259,"Ġexport":3260,"Ġissue":3261,"61":3262,"section":3263,"maven":3264,"Ġversions":3265,"bra":3266,"Ġ-->\\":3267,"yes":3268,"openstack":3269,"solid":3270,"notifications":3271,"ameters":3272,"Ġavailable":3273,"lack":3274,"Options":3275,"mongo":3276,"Ġselect":3277,"Ġheight":3278,"design":3279,"eslint":3280,"Ġtop":3281,"ĠRE":3282,"workflow":3283,"ĠGo":3284,"present":3285,"bundle":3286,"ya":3287,"Go":3288,"Ġsimple":3289,"osu":3290,"Ġlatest":3291,"[]":3292,".\\\"\\":3293,"Ġimplement":3294,"veloper":3295,"AVIS":3296,"System":3297,"Ġsys":3298,"HOUT":3299,"Ġwhere":3300,"resource":3301,"IND":3302,"iven":3303,"jh":3304,"custom":3305,"simple":3306,"ato":3307,"mas":3308,"lip":3309,"Info":3310,"USER":3311,"delete":3312,"PRO":3313,"ti":3314,"uble":3315,"schema":3316,"ĠĠĠĠĠĠĠĠĠĠĠĠ":3317,"lane":3318,"ĠGener":3319,"MAKE":3320,"wd":3321,"ship":3322,"Module":3323,"Rout":3324,"blue":3325,"fire":3326,"corefx":3327,"Ġorder":3328,"Ġbash":3329,"Ġgover":3330,"uo":3331,"Ġnext":3332,"jw":3333,"lyn":3334,"vey":3335,"theme":3336,"unter":3337,"Ġ\\\">=":3338,"Unit":3339,"kr":3340,"odb":3341,"dan":3342,"PS":3343,"Link":3344,"Ġmark":3345,"dated":3346,"users":3347,"apps":3348,"click":3349,"dr":3350,"Ġass":3351,"ORT":3352,"GO":3353,"stri":3354,"Ġ=\\":3355,"Ġhead":3356,"bert":3357,"force":3358,"GET":3359,"\\/*\\":3360,"Ġter":3361,"OF":3362,"Ġglobal":3363,"askell":3364,"NT":3365,"Ġborder":3366,"card":3367,"then":3368,"tf":3369,"database":3370,"Git":3371,"(@":3372,"\":\"[":3373,"Ġpassword":3374,"control":3375,"Ġbutton":3376,"btain":3377,"Ġaccess":3378,"ele":3379,"Page":3380,"oin":3381,"nl":3382,"Task":3383,"gress":3384,"ius":3385,"TY":3386,"nflake":3387,"Ph":3388,"aker":3389,"nh":3390,"pop":3391,"irect":3392,"nde":3393,"sil":3394,"ism":3395,"Ġ[]\\":3396,"plied":3397,"Response":3398,"parent":3399,"Ġprotected":3400,"yu":3401,"account":3402,"Factory":3403,"Ġobtain":3404,"(),":3405,"ga":3406,"mag":3407,"ĠWARRANTIES":3408,"oss":3409,"ched":3410,"Ġrunning":3411,"Ġlike":3412,"PY":3413,"Ġstrict":3414,"logger":3415,"ĠSoftware":3416,"With":3417,"Lib":3418,"sass":3419,"mor":3420,"<%":3421,"spe":3422,"eric":3423,"jam":3424,"Ġsearch":3425,"ĠNOT":3426,"white":3427,"ename":3428,"ole":3429,"Ġsize":3430,"ĠWITHOUT":3431,"ĠCreate":3432,"structure":3433,"pac":3434,"Ġoff":3435,"ublis":3436,"Ġmon":3437,"uture":3438,"TRAVIS":3439,"\":\"\\/\\/":3440,"tasks":3441,"ules":3442,"ighlight":3443,"fork":3444,"Ġpermissions":3445,"tags":3446,"=\\\"\\/":3447,"jun":3448,"Ġmis":3449,"Trans":3450,"ĠLicensed":3451,"Ġencoding":3452,"room":3453,"Sub":3454,"nor":3455,"fox":3456,"ĠAll":3457,"ifest":3458,"LIB":3459,"global":3460,"Action":3461,"ĠĠĠĠĠĠĠĠĠĠĠĠĠĠĠĠĠ":3462,"Ġgradle":3463,"jan":3464,"Ġmap":3465,"$(":3466,"ĠUse":3467,"ĠMIT":3468,"Ġpytest":3469,"login":3470,"land":3471,"Ġwindow":3472,"copy":3473,"watch":3474,"abricator":3475,"berg":3476,"Ġraise":3477,"hing":3478,"ias":3479,"ĠOpen":3480,"\\\"\\/>\\":3481,"left":3482,"ways":3483,"queue":3484,"cookie":3485,"Ġcomposer":3486,"ĠIt":3487,"gor":3488,"Interface":3489,"Ġcache":3490,"nchangelog":3491,"solidus":3492,"sembly":3493,"vim":3494,"nu":3495,"food":3496,"idden":3497,"gramming":3498,"Ġutf":3499,"ves":3500,"ĠJSON":3501,"spice":3502,"Ġsure":3503,"loader":3504,"ping":3505,"Str":3506,"Ġcustom":3507,"Ġtesting":3508,"'],\\":3509,"ALL":3510,"Source":3511,"vi":3512,"gest":3513,"super":3514,"Input":3515,"frontend":3516,"chrome":3517,"Ġvia":3518,"cription":3519,"dest":3520,"rt":3521,"ENT":3522,"bas":3523,"ĠGet":3524,"},":3525,"Builder":3526,"keys":3527,"ategories":3528,"oload":3529,"oundation":3530,"Ġ>=":3531,"sen":3532,"ince":3533,"igation":3534,"Dev":3535,"Ġver":3536,"projects":3537,"day":3538,"Ġwriting":3539,"ready":3540,"ITK":3541,"Ġoverride":3542,"inate":3543,"media":3544,"\\/**":3545,"come":3546,"items":3547,"Ġquery":3548,"ĠStatus":3549,"mr":3550,"ĠConfig":3551,"Ġclean":3552,"Ġjob":3553,"mob":3554,"Ġnum":3555,"fish":3556,"Ġsc":3557,"option":3558,"wag":3559,"ĠNode":3560,"append":3561,"ami":3562,"OM":3563,"Ġruns":3564,"creen":3565,"console":3566,"manager":3567,"greg":3568,"New":3569,"Store":3570,"rab":3571,"tocol":3572,"thedocs":3573,"iddleware":3574,"amel":3575,"Ġreadme":3576,"vit":3577,"Ġimplied":3578,"aded":3579,"Ġbug":3580,"books":3581,"ged":3582,"Out":3583,"jquery":3584,"ĠQ":3585,"Ġ\\\".\\/":3586,"NU":3587,"arning":3588,"Ġremove":3589,"stone":3590,"expect":3591,"2015":3592,"Ġ\\/\\/\\/":3593,"ĠPHP":3594,"gov":3595,"Ġstd":3596,"Red":3597,"All":3598,"Application":3599,"profile":3600,"ervices":3601,"Dir":3602,"ĠTrue":3603,"('\\/":3604,"DIT":3605,"ĠTHE":3606,"dart":3607,"rock":3608,"raries":3609,"Ġagre":3610,"vents":3611,"ABLE":3612,"Result":3613,"oken":3614,"mes":3615,"}.":3616,"den":3617,"Ġap":3618,"001":3619,"())\\":3620,"cour":3621,"istory":3622,"nlanguage":3623,"actions":3624,"gp":3625,"babel":3626,"prom":3627,"nm":3628,"child":3629,"ilter":3630,"Ġinte":3631,"Cl":3632,"ĠSe":3633,"Ġbody":3634,"nafter":3635,"Ġvalues":3636,"ula":3637,"ynam":3638,"readthedocs":3639,"BUILD":3640,"dy":3641,"phabricator":3642,"ĠKIND":3643,"ators":3644,"You":3645,"MO":3646,"Ġown":3647,"Ġmigr":3648,"Car":3649,"ĠWeb":3650,"Ġfilter":3651,"scss":3652,"pipe":3653,"fly":3654,"cure":3655,"SI":3656,"Per":3657,"Ġubuntu":3658,"tes":3659,"ipe":3660,"Ste":3661,"ĠUpdate":3662,"orm":3663,"tn":3664,"rie":3665,"inst":3666,"san":3667,"Ġstore":3668,"component":3669,"akes":3670,"ries":3671,"vn":3672,"================================":3673,"JS":3674,"ume":3675,"heel":3676,"ĠTODO":3677,"localhost":3678,"clang":3679,"TE":3680,"scipy":3681,"ĠList":3682,"Ġendif":3683,"ij":3684,"ocop":3685,"save":3686,"From":3687,"oolean":3688,"nCurrent":3689,"foundation":3690,"SO":3691,"((":3692,"Http":3693,"website":3694,"za":3695,"Ġqu":3696,"hello":3697,"lite":3698,"Ġwant":3699,"btn":3700,"cg":3701,"Ġng":3702,"cas":3703,"menu":3704,"eturn":3705,"TestCase":3706,"Ġmode":3707,"maint":3708,"Ġput":3709,"nown":3710,"SQL":3711,"boy":3712,"ummary":3713,"features":3714,"TEST":3715,"sentry":3716,"bind":3717,"remote":3718,"ĠDE":3719,"circ":3720,"ina":3721,"Ġxml":3722,"Ġdevelopment":3723,"firm":3724,"Ġmust":3725,"david":3726,"Default":3727,"distribut":3728,"rollers":3729,"Ġalso":3730,"Ġdetails":3731,"ĠLog":3732,"iro":3733,"Ġjust":3734,"ars":3735,"CMAKE":3736,"equal":3737,"AGE":3738,"256":3739,"ences":3740,"Ġinfo":3741,"jp":3742,"Ġbet":3743,"lg":3744,"Stream":3745,"rob":3746,"sem":3747,"Record":3748,"oscar":3749,"ables":3750,"Ġdocs":3751,"rus":3752,"Ġeach":3753,"nk":3754,"rf":3755,"Admin":3756,"ULL":3757,"tg":3758,"cap":3759,"pin":3760,"ĠAs":3761,"filename":3762,"structor":3763,"cus":3764,"tv":3765,"nBuild":3766,"fastlane":3767,"zen":3768,"ãģ":3769,"inux":3770,"lix":3771,"cul":3772,"nB":3773,"kee":3774,"ĠEn":3775,"remove":3776,"totype":3777,"article":3778,"jer":3779,"foo":3780,"eter":3781,"Configuration":3782,"unic":3783,"Format":3784,"screen":3785,"roslyn":3786,"CMS":3787,"pression":3788,"Ġcomponent":3789,"gex":3790,"Ġinterface":3791,"des":3792,"daniel":3793,"NO":3794,"ama":3795,"Ġapplicable":3796,"Ġattr":3797,"WS":3798,"nG":3799,"archive":3800,"ingle":3801,"ĠSy":3802,"Ġ.\\":3803,"cmd":3804,"jb":3805,"ather":3806,"123":3807,"paths":3808,"wal":3809,"peter":3810,"iao":3811,"Ġcontainer":3812,"Ġbrowser":3813,"hr":3814,"buck":3815,"security":3816,"koding":3817,"Ġvis":3818,"KEY":3819,"tm":3820,"Ġinitialize":3821,"full":3822,"bers":3823,"bench":3824,"ĠAnd":3825,"alog":3826,"nap":3827,"kt":3828,"('.\\/":3829,"Ġ\\\"*":3830,"wrapper":3831,"Ġ}}<\\/":3832,"TER":3833,"jr":3834,"qt":3835,"nath":3836,"__(":3837,"Ġ]]":3838,"cutter":3839,"cons":3840,"Ġtags":3841,"icy":3842,"gin":3843,"Group":3844,"Ġexist":3845,"ĠLICENSE":3846,"Ġautom":3847,"ology":3848,"zo":3849,"imum":3850,"display":3851,"Ġreport":3852,"commands":3853,");":3854,"serial":3855,"agent":3856,"ana":3857,"flux":3858,"rey":3859,"afe":3860,"andy":3861,"aper":3862,"cret":3863,"ngine":3864,"omain":3865,"nRepo":3866,"Ġmodels":3867,"clean":3868,"dp":3869,"property":3870,"Button":3871,"upported":3872,"ĠRuby":3873,"organ":3874,"math":3875,"Reg":3876,"squ":3877,"testing":3878,"ube":3879,"Ġhow":3880,"Ġextra":3881,"Ġcompliance":3882,"Ġdest":3883,"nin":3884,"nmatrix":3885,"ĠclassName":3886,"tex":3887,"Method":3888,"sha":3889,"ovy":3890,"nAuto":3891,"ora":3892,"cast":3893,"sph":3894,"ira":3895,"imal":3896,"Tem":3897,"Revert":3898,"prefix":3899,"workflows":3900,"Int":3901,"hav":3902,"Ġcallback":3903,"Select":3904,"don":3905,"junit":3906,")\",\"":3907,"Parser":3908,"ws":3909,"sbt":3910,"WOR":3911,"address":3912,"stop":3913,"Ġour":3914,"Di":3915,"ĠLanguage":3916,"postgres":3917,"Ġtravis":3918,"zhang":3919,"ĠAd":3920,"nnode":3921,"Ġdebug":3922,"\\\\\\\"":3923,"vas":3924,"Api":3925,"mysql":3926,"ĠAl":3927,"ĠBAS":3928,"pass":3929,"ĠActive":3930,"wrap":3931,"Ġsk":3932,"ination":3933,"Ġlimitations":3934,"Ġlaw":3935,"No":3936,"expand":3937,"Ġrake":3938,"Ġopt":3939,"fab":3940,"vl":3941,"cab":3942,"ncache":3943,"andrew":3944,"CHAN":3945,"zi":3946,"Ġposition":3947,"wait":3948,"Allow":3949,"Override":3950,"nik":3951,"sphinx":3952,"Ġcorrect":3953,"Document":3954,"Ġhash":3955,"Ġsubdir":3956,"Ġclone":3957,"~~~~":3958,"Valid":3959,"Ġrvm":3960,"uel":3961,"ene":3962,"tab":3963,"DITIONS":3964,"Ġfa":3965,"ffee":3966,"openfood":3967,"Ġlast":3968,"rics":3969,"Upgrade":3970,"uffer":3971,"ĠBASIS":3972,"ĠBSD":3973,"Ġgoverning":3974,"redis":3975,"phinx":3976,"ĠCONDITIONS":3977,"Ġagreed":3978,"Ġdone":3979,"yo":3980,"Ġtool":3981,"ada":3982,"Ġrequests":3983,"Index":3984,"Ġbu":3985,"ucumber":3986,"Ġ,":3987,"product":3988,")\\/":3989,"tics":3990,"ability":3991,"domain":3992,"obj":3993,"ĠAuth":3994,"ĠEN":3995,"locale":3996,"Ġ;":3997,"ĠZ":3998,"Ġbeen":3999,"itional":4000,"cause":4001,"ultiple":4002,"msg":4003,"ET":4004,"ĠObject":4005,"gar":4006,"foot":4007,"ssion":4008,"KEN":4009,"Ġswift":4010,"Ġnone":4011,"Ġplatform":4012,"defined":4013,"mozilla":4014,"][":4015,"feed":4016,"cam":4017,"\\\"],\\":4018,"UP":4019,"Ġthem":4020,"oly":4021,"Ġmissing":4022,"nauthor":4023,"ĠĠĠĠĠĠĠĠĠĠĠĠĠĠ":4024,"ĠType":4025,"ives":4026,"ait":4027,"ptools":4028,"Mon":4029,"Ġits":4030,"njobs":4031,"------------":4032,"acs":4033,"checkout":4034,"LOG":4035,"mut":4036,"autoload":4037,"888":4038,"bottom":4039,"AG":4040,"wiki":4041,"replace":4042,"Ġheader":4043,"Ġsession":4044,"ĠJava":4045,"Ġ200":4046,"Ġfull":4047,"iction":4048,"ncd":4049,"Ġ'.":4050,"dog":4051,"ATION":4052,"errors":4053,"Ġlong":4054,"Mode":4055,"widget":4056,"mik":4057,"Ġtoken":4058,"LL":4059,"Cache":4060,"Ġadmin":4061,"ĠTo":4062,"Ġtim":4063,"ĠRails":4064,"olution":4065,"iffer":4066,"rspec":4067,"Ġsign":4068,"ico":4069,"Ġdon":4070,"forge":4071,"limit":4072,"plan":4073,">\",\"":4074,"factor":4075,"dout":4076,"DK":4077,"blob":4078,"perim":4079,"){\\":4080,"Ġ~\\/.":4081,"routes":4082,"extensions":4083,"\\/\\\"\\":4084,"ura":4085,"free":4086,"gital":4087,"`.":4088,"':\\":4089,"mm":4090,"uptools":4091,"Ġ\\\"\\\"\\\"":4092,"Ġsend":4093,"configure":4094,"vers":4095,"compiler":4096,"shell":4097,"ĠNot":4098,"riter":4099,"Nix":4100,"ITY":4101,"real":4102,"annot":4103,"monitor":4104,"toon":4105,"ibility":4106,"req":4107,"vendor":4108,"PU":4109,"Ġthere":4110,"ola":4111,"close":4112,"Ġbreak":4113,"lis":4114,"Ent":4115,"ĠData":4116,"(),\\":4117,"bon":4118,"mith":4119,"Cor":4120,"Ġcount":4121,"openshift":4122,"pal":4123,"ras":4124,"lask":4125,"Flow":4126,"Ġdescribe":4127,"driver":4128,"itch":4129,"None":4130,"nD":4131,"Read":4132,"Size":4133,"submit":4134,"Filter":4135,"tty":4136,"Line":4137,"[![":4138,"oku":4139,"CS":4140,"guide":4141,"kudo":4142,"uy":4143,"coveralls":4144,"ason":4145,"My":4146,"comment":4147,"park":4148,"lear":4149,"tb":4150,"Description":4151,"Bar":4152,"echo":4153,"aco":4154,"Ġparser":4155,"orld":4156,"camel":4157,"Ġmem":4158,"Ġdist":4159,"rough":4160,"2016":4161,"Ġco":4162,"baz":4163,"coffee":4164,"Ġusers":4165,"terns":4166,"lim":4167,"accept":4168,"compose":4169,"vious":4170,"Ġparent":4171,"Ġcomment":4172,"mann":4173,"posts":4174,"nal":4175,"Ghost":4176,"Ġrights":4177,"mic":4178,"Support":4179,"grid":4180,"ĠUnless":4181,"Ġ\\\"#{":4182,"nil":4183,"sym":4184,"ctr":4185,"nR":4186,"alytics":4187,"team":4188,"ĠDate":4189,"Typed":4190,"circle":4191,"rubocop":4192,"Ġ%><\\/":4193,"pk":4194,"rakudo":4195,"initely":4196,"lections":4197,"pers":4198,"VE":4199,"Ġoper":4200,"Ġ9":4201,"sel":4202,"erge":4203,"record":4204,"apping":4205,"nlicense":4206,"initial":4207,"shared":4208,"=$(":4209,"ssl":4210,"flo":4211,"oper":4212,"Ġparse":4213,"jos":4214,"wei":4215,"export":4216,"ago":4217,"window":4218,"Token":4219,"mobile":4220,"column":4221,"Ġfetch":4222,"tod":4223,"Driver":4224,"oman":4225,"Ġwhile":4226,"shi":4227,"libs":4228,"Ġresource":4229,"icial":4230,"Ġicon":4231,"los":4232,"\\/$":4233,"Ġentry":4234,"TK":4235,"amily":4236,"abe":4237,"upload":4238,"RA":4239,"Ġelement":4240,"environment":4241,"omb":4242,"rigger":4243,"('.":4244,"THON":4245,"yr":4246,"Ġplace":4247,"nic":4248,"vol":4249,"Ġyes":4250,"bugs":4251,"socket":4252,"Ġlogging":4253,"2017":4254,"ous":4255}